<pad>	0
</s>	0
<unk>	0
.	-2.35176
▁	-3.30757
▁me	-3.625
i	-3.72771
a	-3.75062
at	-4.07155
▁ma	-4.24893
▁se	-4.29847
un	-4.35306
n	-4.36387
▁mu	-4.37703
▁bo	-4.60484
Ma	-4.65046
et	-4.80306
m	-4.85896
▁emun	-4.86544
s	-4.87937
ta	-4.89006
k	-4.93903
ra	-4.95808
u	-5.01204
An	-5.01774
▁ka	-5.02763
,	-5.04595
▁esun	-5.04597
an	-5.05939
t	-5.11939
▁ko	-5.12181
e	-5.1253
p	-5.19803
Mu	-5.25717
r	-5.2769
l	-5.27798
ko	-5.29254
te	-5.33041
▁na	-5.35198
ba	-5.36848
Ka	-5.37055
o	-5.39627
▁ba	-5.45271
in	-5.49672
ka	-5.49873
▁tok	-5.51906
da	-5.56731
▁wa	-5.57016
kin	-5.589
bon	-5.61999
ng	-5.64773
▁reidak	-5.68652
re	-5.69225
▁toni	-5.69712
ara	-5.70841
▁an	-5.71852
nin	-5.75481
▁paruo	-5.79137
ar	-5.79777
▁koyet	-5.82217
▁kon	-5.84013
∼	-5.84474
▁he	-5.90373
?	-5.93994
sa	-5.99401
ten	-6.01627
▁in	-6.02665
g	-6.0278
N	-6.03236
▁eba	-6.03475
wa	-6.04324
In	-6.06415
▁pi	-6.0986
▁reba	-6.1045
la	-6.11355
▁mat	-6.12664
ga	-6.15686
▁bara	-6.17628
▁sor	-6.19287
h	-6.194
or	-6.20425
di	-6.20977
ki	-6.21295
unat	-6.21568
▁opa	-6.21886
▁bot	-6.24608
na	-6.25382
▁saerak	-6.26458
▁ki	-6.27117
▁temun	-6.28292
▁ta	-6.28382
er	-6.28676
▁sara	-6.31581
ngga	-6.33094
▁o	-6.34298
▁ra	-6.34641
▁di	-6.34743
man	-6.39123
▁sa	-6.39421
ok	-6.39778
▁ge	-6.39795
y	-6.43024
▁metko	-6.43916
O	-6.45563
▁kona	-6.45804
ni	-6.45815
Ki	-6.46654
mun	-6.47559
us	-6.47665
▁mambon	-6.47717
kon	-6.48331
▁war	-6.48378
bu	-6.50424
▁jie	-6.51628
▁go	-6.51968
tnin	-6.52265
ri	-6.5292
ur	-6.53259
R	-6.53723
T	-6.53759
▁ye	-6.54383
si	-6.54481
▁to	-6.56011
▁taraun	-6.57367
▁potma	-6.57436
me	-6.58914
de	-6.58957
▁teba	-6.61977
Tumun	-6.64036
ca	-6.64256
▁marua	-6.6666
ir	-6.69605
on	-6.69774
▁met	-6.71058
ggo	-6.71603
ul	-6.71815
▁eh	-6.72947
▁per	-6.73022
▁...	-6.74537
ti	-6.74599
▁ror	-6.74713
E	-6.76408
it	-6.76743
▁kewe	-6.77371
▁neba	-6.77542
gi	-6.77616
▁muap	-6.78813
Di	-6.78948
ru	-6.80144
▁sontum	-6.81097
uk	-6.81121
▁wat	-6.8114
▁nau	-6.81487
▁kuru	-6.84361
em	-6.8502
Go	-6.86925
▁mara	-6.87424
mang	-6.88281
▁bes	-6.89557
Tumtum	-6.89869
ep	-6.9002
ruo	-6.90486
teba	-6.91663
A	-6.92262
tu	-6.92666
▁tiri	-6.93213
▁mia	-6.93252
pa	-6.93259
▁ewa	-6.93476
Sa	-6.94117
▁p	-6.9449
ret	-6.95016
Sontum	-6.96643
▁melalu	-6.96652
Bakri	-6.96683
▁et	-6.96812
▁mindi	-6.96813
ap	-6.96818
▁so	-6.96956
▁don	-6.97877
Bi	-6.98726
yil	-7.00235
▁mingg	-7.01213
▁parin	-7.01298
▁eir	-7.02434
▁ramie	-7.03918
▁n	-7.04039
▁ning	-7.04064
abil	-7.05016
▁os	-7.05576
▁ke	-7.05582
▁su	-7.06049
Se	-7.0726
▁luk	-7.0809
li	-7.08317
run	-7.08356
▁pas	-7.086
el	-7.08796
kap	-7.08811
Wa	-7.09006
Un	-7.09294
kur	-7.09848
nan	-7.10032
B	-7.10684
▁deba	-7.11793
▁sayang	-7.11802
rar	-7.11872
▁yuwa	-7.12017
▁tu	-7.12027
Su	-7.12687
▁pa	-7.1417
tet	-7.14345
▁anggon	-7.14423
lan	-7.14917
▁b	-7.15359
war	-7.15623
▁min	-7.15644
▁gonggung	-7.15931
yong	-7.16037
De	-7.16268
▁sorat	-7.16366
▁watko	-7.16699
P	-7.16871
Me	-7.1722
▁e	-7.17676
▁nain	-7.18825
▁ur	-7.19423
Ta	-7.1992
Kalamang	-7.2028
▁bisa	-7.20294
c	-7.20403
▁etkon	-7.20594
▁si	-7.20941
▁yar	-7.21396
▁leng	-7.21767
▁kiem	-7.2193
bi	-7.22085
ol	-7.23085
▁tur	-7.23406
▁yume	-7.23622
konggo	-7.24604
▁koni	-7.24763
Kewe	-7.24824
afa	-7.24824
▁marmar	-7.24824
Bal	-7.24849
kadok	-7.24863
lo	-7.24939
▁paruotkin	-7.2512
Ror	-7.25231
jie	-7.25303
Ir	-7.25805
▁kor	-7.27116
ustam	-7.27384
▁lo	-7.2855
▁er	-7.29042
Pi	-7.29241
▁im	-7.29437
▁weinun	-7.29586
Must	-7.29634
▁ar	-7.31287
▁anat	-7.319
▁keweun	-7.33948
Na	-7.34365
tkin	-7.34495
▁dodon	-7.34595
"	-7.35796
▁komet	-7.3581
K	-7.3637
d	-7.36564
▁sam	-7.38515
▁te	-7.39842
▁Pakpaka	-7.39849
▁owatko	-7.39853
▁pasa	-7.40388
▁par	-7.40536
▁kajie	-7.40626
▁garung	-7.40776
tun	-7.41167
▁kat	-7.41513
den	-7.42109
sara	-7.42281
ung	-7.42806
▁"	-7.43705
▁ku	-7.43917
▁bora	-7.44682
▁tama	-7.45305
▁yecie	-7.45406
Mier	-7.45422
Som	-7.4543
Sayang	-7.45433
bur	-7.45501
Sor	-7.45508
▁komain	-7.45558
Wise	-7.45564
Naman	-7.45619
be	-7.45695
Pa	-7.46393
▁warkin	-7.46482
wat	-7.46717
▁kuar	-7.46949
▁la	-7.47564
▁kie	-7.4776
▁tumunun	-7.48208
▁mengga	-7.49106
ot	-7.49213
▁owa	-7.49893
amin	-7.50583
▁le	-7.50705
!	-7.51218
ǃ	-7.51287
Raji	-7.51287
▁ripi	-7.51289
Mayor	-7.51302
ang	-7.51782
▁puraman	-7.51868
Men	-7.51998
▁tang	-7.52946
kongga	-7.5389
nggara	-7.54762
ci	-7.56529
:	-7.57537
▁melelu	-7.57537
▁guru	-7.57537
Alun	-7.57563
▁nerunggo	-7.57598
▁sanggara	-7.57938
Tok	-7.58054
▁wandi	-7.5818
lal	-7.58674
j	-7.59088
▁ecien	-7.6061
▁tumun	-7.61231
Ko	-7.61756
▁era	-7.61783
jan	-7.62811
▁pe	-7.63948
Ku	-7.6402
▁kerunggo	-7.64208
▁tamandi	-7.64208
▁paning	-7.6421
Randa	-7.64211
▁parair	-7.64213
▁kadenun	-7.64221
▁patin	-7.64231
Tami	-7.64232
▁eranun	-7.64235
▁yuol	-7.64241
sawe	-7.64495
▁pul	-7.64577
Mama	-7.64626
▁sala	-7.64656
▁kan	-7.64665
▁kalis	-7.64671
kang	-7.65289
▁yuon	-7.65463
▁sair	-7.65494
▁neko	-7.65827
▁tan	-7.65943
iri	-7.65997
ene	-7.66007
▁nak	-7.66125
Wat	-7.6627
anat	-7.6639
▁ja	-7.66501
pe	-7.68711
▁pak	-7.69345
om	-7.69878
G	-7.69915
bir	-7.70238
lak	-7.7059
lau	-7.7069
sir	-7.70886
▁ter	-7.70924
b	-7.71075
▁amdir	-7.71241
▁wele	-7.71345
Salima	-7.71346
Ema	-7.71394
Bobi	-7.71418
Don	-7.71432
Kalis	-7.71688
▁gerket	-7.7178
put	-7.71986
Esa	-7.72043
Pas	-7.72103
War	-7.72199
▁kosara	-7.72288
Ur	-7.7237
Im	-7.72957
▁ladan	-7.73023
eir	-7.7342
▁masara	-7.73545
▁tara	-7.73758
sie	-7.74134
▁yo	-7.74673
ing	-7.7488
▁yal	-7.74929
Bo	-7.75185
▁pen	-7.76592
unko	-7.77665
▁nakal	-7.77707
Burhan	-7.79039
▁cicaun	-7.79039
Tamandi	-7.79039
▁mambara	-7.79041
▁tebonggan	-7.79043
▁tamatko	-7.79043
▁kanggeit	-7.79046
▁tumtum	-7.79048
nam	-7.79269
▁kanie	-7.7937
ouk	-7.79495
emun	-7.79643
Ge	-7.79868
▁nanet	-7.80005
Mo	-7.80066
▁kain	-7.80398
Et	-7.80905
▁paruak	-7.80912
tain	-7.81237
▁ime	-7.81244
▁yumen	-7.81341
▁karuok	-7.81388
▁waruo	-7.8156
▁kamun	-7.81805
▁du	-7.81869
sal	-7.82915
▁saun	-7.83556
Sakina	-7.83584
lik	-7.84116
ier	-7.84123
keitko	-7.84922
Ya	-7.85651
▁nam	-7.85724
ser	-7.865
Jikri	-7.87372
▁iriskap	-7.87372
▁Kambur	-7.87372
▁ririn	-7.87373
▁lalang	-7.87377
▁koluk	-7.87382
Tom	-7.87619
Nina	-7.87673
▁arkon	-7.8772
▁din	-7.88313
▁kuet	-7.88718
pak	-7.89165
Pak	-7.89574
I	-7.89849
▁owangga	-7.90147
Kon	-7.90867
▁kai	-7.91323
▁botkin	-7.91336
▁po	-7.91425
Ha	-7.9146
U	-7.91588
unggo	-7.91837
rom	-7.93182
▁ha	-7.93928
▁naras	-7.94338
▁tua	-7.94821
▁kiun	-7.9496
▁pasier	-7.9604
▁lu	-7.96182
Te	-7.96227
Abdula	-7.96463
kansuor	-7.96463
▁napaki	-7.96482
taet	-7.965
ktar	-7.966
▁kinkin	-7.96653
Wie	-7.9667
▁nene	-7.96676
▁mo	-7.96824
▁pasierko	-7.97007
▁gosomin	-7.97026
▁taruo	-7.97107
▁bolon	-7.97149
▁rep	-7.9733
▁main	-7.9749
barak	-7.98144
Y	-7.98291
▁naman	-7.98425
▁ran	-7.98429
dung	-7.98491
yak	-7.98581
▁nan	-7.98737
▁taikon	-7.98757
Kamun	-7.9907
mor	-7.99557
teng	-8.00278
Da	-8.01106
rie	-8.01473
ras	-8.01921
tumun	-8.0328
sik	-8.03286
don	-8.03576
duk	-8.05458
▁jien	-8.06083
▁wilak	-8.06463
ː	-8.06463
▁yawe	-8.06463
mumur	-8.06463
▁kuskap	-8.06464
▁kerkap	-8.06464
Supri	-8.06465
▁pitis	-8.06471
▁panggala	-8.06476
Neba	-8.06485
▁reon	-8.06516
▁amdirun	-8.06614
▁karop	-8.06728
▁sabur	-8.069
▁olun	-8.07382
Ca	-8.07492
Sik	-8.07867
du	-8.08892
▁los	-8.08894
▁pos	-8.09269
wal	-8.09818
lis	-8.10356
Kib	-8.10944
▁baran	-8.10954
Tangg	-8.11767
ja	-8.11927
▁dira	-8.12014
yal	-8.13893
potma	-8.13916
waruo	-8.14768
▁parua	-8.14936
▁ladanun	-8.14994
pis	-8.15384
eh	-8.16117
D	-8.16986
▁buok	-8.17102
▁Rus	-8.17289
lom	-8.17401
▁karajang	-8.17574
▁narorar	-8.17574
-	-8.17574
▁nawanggar	-8.17574
▁hukat	-8.17575
▁kahen	-8.17575
▁kararak	-8.17576
nggaruok	-8.1758
▁putkon	-8.17584
▁pawan	-8.17584
▁bunga	-8.1759
Yuo	-8.17685
▁pareir	-8.17689
▁karek	-8.17714
▁elak	-8.17753
▁sirie	-8.17774
Pul	-8.17941
▁yap	-8.18059
Emun	-8.18294
▁mulun	-8.18302
kir	-8.18464
▁esa	-8.18571
▁tete	-8.19129
▁Gowien	-8.19198
▁yua	-8.19519
sor	-8.19813
▁kowar	-8.20045
W	-8.20098
Per	-8.21023
▁sangg	-8.21164
Kah	-8.21172
▁kies	-8.21331
S	-8.21986
▁Sakina	-8.22986
epne	-8.23083
▁kou	-8.23211
M	-8.23561
Rus	-8.24378
ggi	-8.24856
▁keit	-8.25106
gang	-8.25793
▁nasu	-8.26326
karuok	-8.26354
erus	-8.26852
pal	-8.27219
leng	-8.27824
Si	-8.28321
▁lampur	-8.30074
▁sungsung	-8.30074
Esnem	-8.30074
Nostal	-8.30074
v	-8.30074
▁gonggin	-8.30074
▁cerit	-8.30074
Dalima	-8.30074
▁purap	-8.30075
▁kabor	-8.30076
kawet	-8.30077
▁sadawa	-8.30081
▁canam	-8.30083
▁karuar	-8.30084
Kokok	-8.30085
▁mungkin	-8.30144
▁sukaun	-8.30145
▁tabai	-8.30174
Manad	-8.30189
▁sanong	-8.30195
▁lalat	-8.30236
▁nika	-8.30254
▁maraouk	-8.30281
▁nerun	-8.30445
Inier	-8.30525
Bak	-8.3057
?"	-8.30794
▁ah	-8.30803
▁natkin	-8.31502
Kor	-8.31693
pol	-8.31725
ehan	-8.31849
saunet	-8.32278
▁des	-8.32338
yam	-8.32462
▁keweko	-8.32534
rasa	-8.32558
▁rua	-8.33998
▁sira	-8.34461
suen	-8.3454
▁tanun	-8.3511
▁yu	-8.359
▁ecie	-8.37423
▁arun	-8.38408
▁wane	-8.39697
Tu	-8.40083
yo	-8.40592
▁tal	-8.4076
▁ya	-8.41226
paruo	-8.41245
Suo	-8.4143
pay	-8.41517
▁epka	-8.44337
'	-8.4436
Nazu	-8.4436
kaninggonie	-8.4436
wuorma	-8.4436
▁distrik	-8.4436
/	-8.4436
Bayu	-8.4436
▁dimarua	-8.4436
▁kaluar	-8.4436
▁tabusik	-8.4436
▁reitkon	-8.44361
▁kawaya	-8.44361
▁kinggir	-8.44362
▁dalang	-8.44362
▁kanggu	-8.44365
▁yie	-8.44367
Banda	-8.4437
▁komahal	-8.44378
berak	-8.44378
▁owane	-8.4438
▁mier	-8.44422
▁gier	-8.44422
repte	-8.44444
▁iren	-8.44544
▁caun	-8.44667
kusu	-8.44688
▁terus	-8.44802
▁masu	-8.44808
▁talin	-8.44936
▁pue	-8.45116
▁kasi	-8.45182
▁wien	-8.4557
▁goni	-8.45751
▁dong	-8.45846
▁our	-8.45891
▁narun	-8.46606
▁nakalun	-8.47104
▁kanggir	-8.4725
Muap	-8.47353
Sam	-8.47975
▁korun	-8.47976
▁kanggirun	-8.48289
neko	-8.4965
▁tumunan	-8.50121
▁kier	-8.50134
▁har	-8.50252
▁sar	-8.5034
pas	-8.50656
▁am	-8.52616
rena	-8.52896
▁rei	-8.52918
isia	-8.53272
▁sab	-8.57017
sontum	-8.57358
parin	-8.57377
kuar	-8.57398
Ar	-8.58085
kul	-8.58218
▁sabar	-8.59016
▁do	-8.59436
▁wie	-8.59615
awe	-8.60252
0	-8.60996
1	-8.61026
5	-8.61026
Faldi	-8.61026
Kamberar	-8.61026
Ladan	-8.61026
Lempuang	-8.61026
▁fiberun	-8.61026
▁kawarcie	-8.61026
kahalong	-8.61027
▁gareor	-8.61027
▁didiras	-8.61027
Mindi	-8.61028
▁komaruk	-8.61028
hutak	-8.61029
Pitis	-8.6103
kahaman	-8.61032
Pawan	-8.61037
00	-8.61041
▁somin	-8.61045
▁kurang	-8.61048
Aya	-8.61048
▁inggon	-8.61051
▁barsi	-8.61052
▁osatko	-8.61072
▁epkon	-8.61073
▁kaware	-8.61075
▁kasur	-8.61079
gula	-8.61091
▁timun	-8.61093
▁mahara	-8.61116
▁kolko	-8.61121
▁sekola	-8.61135
▁usar	-8.61164
▁semen	-8.61173
▁kokok	-8.61201
!"	-8.61234
atau	-8.61264
▁paden	-8.61324
▁koma	-8.61363
Ikon	-8.61401
▁tanbesko	-8.61473
▁ema	-8.61656
▁laur	-8.61701
Wo	-8.6171
Sar	-8.61735
▁tamanggata	-8.61917
▁pasor	-8.62216
▁leba	-8.625
▁mama	-8.62561
maha	-8.62754
▁paku	-8.63155
▁jam	-8.63217
Sap	-8.63916
▁tamangga	-8.6427
erar	-8.64624
hal	-8.65608
yang	-8.69853
ris	-8.71493
uari	-8.72171
Ram	-8.73618
rot	-8.74195
▁tep	-8.76502
kies	-8.77291
yuon	-8.77302
garung	-8.77336
pos	-8.77365
komet	-8.77542
ninggan	-8.78111
besta	-8.79539
▁tanbes	-8.80485
▁tanggo	-8.80946
3	-8.81026
▁Jawa	-8.81026
▁boubou	-8.81026
▁ewun	-8.81026
▁kalifan	-8.81026
▁kanggeir	-8.81026
▁winyal	-8.81026
▁yonsong	-8.81026
▁giarten	-8.81027
▁yorsik	-8.81027
▁kelkam	-8.81027
▁adeh	-8.81028
▁purir	-8.81028
Tagur	-8.81028
Rukmana	-8.81029
▁tebolsuban	-8.81029
▁tabuon	-8.8103
▁yawetko	-8.81033
▁tagur	-8.81036
▁sasul	-8.81039
▁kibis	-8.81042
▁kosom	-8.81043
▁tolas	-8.81044
▁pararuo	-8.81045
▁taukon	-8.81046
▁naunak	-8.81047
▁karimun	-8.81048
▁kaling	-8.81054
▁Walakangga	-8.81061
▁sarim	-8.81071
▁sausaun	-8.81076
▁gawar	-8.81077
▁walor	-8.81083
▁kotur	-8.81092
▁lolok	-8.811
▁kairep	-8.81121
▁tolma	-8.81171
▁dari	-8.81182
▁taluk	-8.81233
unsaet	-8.81236
alawak	-8.8127
▁ternan	-8.81372
▁kangun	-8.81424
▁goras	-8.81459
▁sarie	-8.81523
▁suol	-8.81586
▁tanggor	-8.816
ebis	-8.81615
▁pouk	-8.81735
▁koraruo	-8.81749
▁rus	-8.82148
Kiem	-8.82287
▁karo	-8.82928
naninggan	-8.84322
ien	-8.89519
H	-8.93725
les	-8.9474
▁oskeit	-8.98256
Gowien	-9.0221
C	-9.03301
▁koraru	-9.05273
Wis	-9.05284
anggeit	-9.06
2	-9.06026
Alif	-9.06026
Jafaris	-9.06026
Lampur	-9.06026
Makassar	-9.06026
Paramuang	-9.06026
▁Tamisengga	-9.06026
▁ginggir	-9.06026
▁kabaruap	-9.06026
▁kofir	-9.06026
▁lembaga	-9.06026
▁lenggalengga	-9.06026
▁lepalepa	-9.06026
▁merengguen	-9.06026
▁padanual	-9.06026
▁tamisenka	-9.06026
▁wilao	-9.06026
▁wowa	-9.06026
▁amkeit	-9.06026
▁bolodak	-9.06027
▁lamut	-9.06027
▁mintolma	-9.06027
▁payiem	-9.06027
▁naramas	-9.06027
Mingtuna	-9.06027
▁keirunggo	-9.06027
▁keteles	-9.06027
▁minggalot	-9.06027
▁naluar	-9.06027
▁seletkon	-9.06027
▁kelek	-9.06028
▁ajak	-9.06028
Halim	-9.06029
▁kitpis	-9.0603
Usman	-9.06031
▁neing	-9.06031
▁Kiaba	-9.06032
▁reirap	-9.06035
▁sikola	-9.06036
▁Masko	-9.06039
Anggas	-9.06039
▁anggas	-9.0604
▁langgan	-9.06041
▁kalamang	-9.06042
▁kelua	-9.06042
▁baranggap	-9.06045
▁Tanggiun	-9.06048
▁pusun	-9.06052
▁oskol	-9.06052
▁yuane	-9.06055
▁dorma	-9.06064
▁toktok	-9.06066
▁konenen	-9.06067
▁kanggaran	-9.0607
▁sawaun	-9.06083
▁yuwane	-9.06084
▁kukis	-9.06088
▁dunun	-9.06096
Panggal	-9.06101
Put	-9.06112
ramandalin	-9.06223
kurera	-9.0628
▁lebe	-9.06335
▁kirarun	-9.06367
▁orko	-9.06416
▁sisir	-9.0645
▁kolaka	-9.06488
▁sarua	-9.06518
▁rup	-9.06654
▁nalat	-9.06938
▁sikana	-9.06956
kerungg	-9.07295
▁kolakk	-9.07862
nere	-9.08909
▁Bu	-9.0906
waruotkin	-9.09995
▁kapu	-9.11466
eren	-9.14273
yuor	-9.15483
kanggirar	-9.23449
▁pangg	-9.28454
puraman	-9.35654
wandi	-9.38859
Walaka	-9.39322
ebonggan	-9.39338
4	-9.3936
6	-9.3936
8	-9.3936
Aprilia	-9.3936
Distrik	-9.3936
Fatima	-9.3936
Kemanur	-9.3936
Yahya	-9.3936
masaw	-9.3936
salaboung	-9.3936
umasakitk	-9.3936
▁201	-9.3936
▁afoka	-9.3936
▁belajar	-9.3936
▁conto	-9.3936
▁durcie	-9.3936
▁girgir	-9.3936
▁jepang	-9.3936
▁kahetmei	-9.3936
▁kawotman	-9.3936
▁komangganggow	-9.3936
▁langsung	-9.3936
▁lempuang	-9.3936
▁melebor	-9.3936
▁nafikir	-9.3936
▁napinjang	-9.3936
▁nasesak	-9.3936
▁tengguen	-9.3936
▁torpes	-9.3936
▁wewar	-9.3936
▁yuolyuol	-9.3936
*	-9.3936
Arifin	-9.3936
▁keluer	-9.3936
▁newer	-9.3936
▁padamual	-9.3936
Kindius	-9.3936
Yeso	-9.3936
nyanyi	-9.3936
▁Pour	-9.3936
▁esnem	-9.3936
▁pokpok	-9.3936
▁potmei	-9.3936
▁teltel	-9.3936
▁wilaun	-9.3936
▁tebol	-9.3936
▁paramua	-9.3936
▁napasang	-9.39361
▁sempang	-9.39361
▁yapseran	-9.39361
▁nasuarik	-9.39361
stangan	-9.39362
sandar	-9.39362
▁daruk	-9.39362
▁tanparo	-9.39362
▁terima	-9.39363
bintang	-9.39363
▁utkon	-9.39363
▁wanggon	-9.39363
▁pasieko	-9.39363
▁jabul	-9.39365
▁welenggap	-9.39366
▁naubes	-9.39367
umrum	-9.39367
▁komele	-9.39367
▁masikit	-9.39369
▁tagier	-9.3937
Guru	-9.39371
▁miarip	-9.39371
▁koyalin	-9.39371
▁kitkadok	-9.39372
▁oskitk	-9.39373
▁mikon	-9.39376
▁gaim	-9.3938
▁kuek	-9.39393
▁suagi	-9.39395
▁telin	-9.39398
Risk	-9.39404
galip	-9.39408
▁Tubur	-9.39415
▁natuka	-9.3942
▁sitak	-9.39421
▁mendak	-9.39424
amual	-9.39429
▁duran	-9.39432
▁lawan	-9.39447
▁lenggo	-9.39468
silep	-9.39472
orkuran	-9.3948
7	-10.8928
ˈ	-10.8929
z	-10.893
F	-10.8931
∅	-10.8932
J	-10.8933
L	-10.8934
f	-10.8935
(	-10.8936
)	-10.8936
9	-10.8936
;	-10.8936
w	-10.8936
x	-10.8936
→	-10.8936
